2522dd1c
02d41034
f138e330
05ee27a5
05d79d4c
3ec826fb
d6f1c12d
fddb312c
14c7162d
27fdcf2f
1860e6de
1406d1d0
2cd71fde
cb064bd5
90fc775a
954fe2a0
d120eb07
3151050e
a4c0fc33
f6022b42
d2ee3828
cdfe13e4
023e2549
56e0a9c0
28c4204e
06d11715
f026e0d8
efe13eec
f831defb
32db00f3
ffe31ffc
e6ec1128
f2340408
04fed308
d9dc7111
54dfd024
2bc61e10
ae0966e4
103c092d
14db1401
cbbacfd8
ef251bfe
28132fd1
fa1e1708
33cb052c
201b1dfb
1dcf3e1b
ed03f036
d73043be
10e00d18
b9b3d1fe
fc16101f
190613fc
031915f3
07a2fc1f
f01af4a7
111fc7e4
532467e7
cd19e6ed
d3f91615
2f171be4
e9d16b23
6c05d00b
cadadd17
f5ef1420
170108f7
e9f6edfb
eef5f8d1
04b8237f
7f03caed
e143082c
224311d3
