e6fcd564
a4f5d000
18334e44
b243a968
bee2df74
a33ddbf3
72320a84
400c473c
7b9eac65
dd0c4c2e
985c7b6b
e829e094
e3891309
ce617dc4
fe635dfa
a44d81a6
ed10d37c
5543742a
07000348
2417675f
5a32ec72
36444157
e11bfcbb
03466b55
4a76bec4
9647a354
513b9952
59da3354
295f9709
31439bb6
ce5a3e33
921ad7a9
66cf6234
49ed9a2c
035a2b52
d5d787a6
0f7de669
7d6ed739
ace354ff
ba0a70a8
ad17b349
3e0b714f
d393a498
45c4a301
3a9be6e9
bb30c2ee
f152393d
c5188b1a
2be35a12
0e6f0f20
a67c977d
a4bcb864
a98ec516
133b0680
f8f5c38d
5f41ce8a
ed466944
51f6839d
a8022b9c
7c7b72b8
8811ff83
beff9161
0f6c9bfd
bdd38d62
e3196642
cb4cb124
62a3b1b5
cc730c7d
1a9c6871
3ff468a5
20db240e
0057dade
